#ifndef SINE_MODEL_H
#define SINE_MODEL_H


unsigned int sine_model_len = 3168;
unsigned char sine_model[] = {
 0x1c, 0x00, 0x00, 0x00, 0x54, 0x46, 0x4c, 0x33, 0x14, 0x00, 0x20, 0x00,
  0x1c, 0x00, 0x18, 0x00, 0x14, 0x00, 0x10, 0x00, 0x0c, 0x00, 0x00, 0x00,
  0x08, 0x00, 0x04, 0x00, 0x14, 0x00, 0x00, 0x00, 0x1c, 0x00, 0x00, 0x00,
  0x90, 0x00, 0x00, 0x00, 0xe8, 0x00, 0x00, 0x00, 0x04, 0x07, 0x00, 0x00,
  0x14, 0x07, 0x00, 0x00, 0x0c, 0x0c, 0x00, 0x00, 0x03, 0x00, 0x00, 0x00,
  0x01, 0x00, 0x00, 0x00, 0x10, 0x00, 0x00, 0x00, 0x00, 0x00, 0x0a, 0x00,
  0x10, 0x00, 0x0c, 0x00, 0x08, 0x00, 0x04, 0x00, 0x0a, 0x00, 0x00, 0x00,
  0x0c, 0x00, 0x00, 0x00, 0x1c, 0x00, 0x00, 0x00, 0x38, 0x00, 0x00, 0x00,
  0x0f, 0x00, 0x00, 0x00, 0x73, 0x65, 0x72, 0x76, 0x69, 0x6e, 0x67, 0x5f,
  0x64, 0x65, 0x66, 0x61, 0x75, 0x6c, 0x74, 0x00, 0x01, 0x00, 0x00, 0x00,
  0x04, 0x00, 0x00, 0x00, 0x98, 0xff, 0xff, 0xff, 0x09, 0x00, 0x00, 0x00,
  0x04, 0x00, 0x00, 0x00, 0x07, 0x00, 0x00, 0x00, 0x64, 0x65, 0x6e, 0x73,
  0x65, 0x5f, 0x32, 0x00, 0x01, 0x00, 0x00, 0x00, 0x04, 0x00, 0x00, 0x00,
  0xc6, 0xf9, 0xff, 0xff, 0x04, 0x00, 0x00, 0x00, 0x0b, 0x00, 0x00, 0x00,
  0x64, 0x65, 0x6e, 0x73, 0x65, 0x5f, 0x69, 0x6e, 0x70, 0x75, 0x74, 0x00,
  0x02, 0x00, 0x00, 0x00, 0x34, 0x00, 0x00, 0x00, 0x04, 0x00, 0x00, 0x00,
  0xdc, 0xff, 0xff, 0xff, 0x0c, 0x00, 0x00, 0x00, 0x04, 0x00, 0x00, 0x00,
  0x13, 0x00, 0x00, 0x00, 0x43, 0x4f, 0x4e, 0x56, 0x45, 0x52, 0x53, 0x49,
  0x4f, 0x4e, 0x5f, 0x4d, 0x45, 0x54, 0x41, 0x44, 0x41, 0x54, 0x41, 0x00,
  0x08, 0x00, 0x0c, 0x00, 0x08, 0x00, 0x04, 0x00, 0x08, 0x00, 0x00, 0x00,
  0x0b, 0x00, 0x00, 0x00, 0x04, 0x00, 0x00, 0x00, 0x13, 0x00, 0x00, 0x00,
  0x6d, 0x69, 0x6e, 0x5f, 0x72, 0x75, 0x6e, 0x74, 0x69, 0x6d, 0x65, 0x5f,
  0x76, 0x65, 0x72, 0x73, 0x69, 0x6f, 0x6e, 0x00, 0x0d, 0x00, 0x00, 0x00,
  0x18, 0x06, 0x00, 0x00, 0x10, 0x06, 0x00, 0x00, 0xc0, 0x05, 0x00, 0x00,
  0xa4, 0x05, 0x00, 0x00, 0x54, 0x05, 0x00, 0x00, 0x04, 0x05, 0x00, 0x00,
  0xf4, 0x00, 0x00, 0x00, 0xa4, 0x00, 0x00, 0x00, 0x9c, 0x00, 0x00, 0x00,
  0x94, 0x00, 0x00, 0x00, 0x8c, 0x00, 0x00, 0x00, 0x6c, 0x00, 0x00, 0x00,
  0x04, 0x00, 0x00, 0x00, 0x72, 0xfa, 0xff, 0xff, 0x04, 0x00, 0x00, 0x00,
  0x58, 0x00, 0x00, 0x00, 0x0c, 0x00, 0x00, 0x00, 0x08, 0x00, 0x0e, 0x00,
  0x08, 0x00, 0x04, 0x00, 0x08, 0x00, 0x00, 0x00, 0x10, 0x00, 0x00, 0x00,
  0x28, 0x00, 0x00, 0x00, 0x00, 0x00, 0x06, 0x00, 0x08, 0x00, 0x04, 0x00,
  0x06, 0x00, 0x00, 0x00, 0x04, 0x00, 0x00, 0x00, 0x01, 0x00, 0x00, 0x00,
  0xea, 0x03, 0x00, 0x00, 0x00, 0x00, 0x0a, 0x00, 0x10, 0x00, 0x0c, 0x00,
  0x08, 0x00, 0x04, 0x00, 0x0a, 0x00, 0x00, 0x00, 0x02, 0x00, 0x00, 0x00,
  0x02, 0x00, 0x00, 0x00, 0x04, 0x00, 0x00, 0x00, 0x06, 0x00, 0x00, 0x00,
  0x32, 0x2e, 0x31, 0x30, 0x2e, 0x31, 0x00, 0x00, 0xd6, 0xfa, 0xff, 0xff,
  0x04, 0x00, 0x00, 0x00, 0x10, 0x00, 0x00, 0x00, 0x31, 0x2e, 0x35, 0x2e,
  0x30, 0x00, 0x00, 0x00, 0x00, 0x00, 0x00, 0x00, 0x00, 0x00, 0x00, 0x00,
  0xc0, 0xf5, 0xff, 0xff, 0xc4, 0xf5, 0xff, 0xff, 0xc8, 0xf5, 0xff, 0xff,
  0xfe, 0xfa, 0xff, 0xff, 0x04, 0x00, 0x00, 0x00, 0x40, 0x00, 0x00, 0x00,
  0x54, 0x1c, 0xad, 0x3f, 0x92, 0x17, 0xcf, 0x3e, 0x5a, 0x66, 0x50, 0x3f,
  0xbb, 0xe0, 0x76, 0xbf, 0xa0, 0xc8, 0x87, 0x3e, 0x94, 0x4f, 0xf8, 0x3d,
  0xac, 0x0f, 0x19, 0x3e, 0x9c, 0x74, 0x6c, 0x3f, 0xe2, 0xcf, 0x32, 0xbf,
  0x70, 0x0d, 0x54, 0x3d, 0x8c, 0x92, 0x4c, 0xbf, 0xe4, 0xe4, 0xe8, 0xbe,
  0x1e, 0x2f, 0x30, 0xbf, 0x47, 0x1f, 0x65, 0xbf, 0xf6, 0xa4, 0x07, 0xbe,
  0x8e, 0x26, 0x1a, 0xbe, 0x4a, 0xfb, 0xff, 0xff, 0x04, 0x00, 0x00, 0x00,
  0x00, 0x04, 0x00, 0x00, 0xc4, 0xa6, 0xf5, 0xbd, 0xcd, 0xe1, 0xcf, 0xbe,
  0x7e, 0x83, 0x1c, 0xbf, 0xde, 0x17, 0x50, 0xbe, 0x4c, 0xdd, 0x30, 0xbe,
  0x08, 0x99, 0xb7, 0x3e, 0x99, 0x2c, 0xa3, 0x3e, 0xf8, 0x42, 0x27, 0x3f,
  0x90, 0x43, 0x97, 0xbd, 0xb6, 0x6a, 0x5a, 0x3e, 0x93, 0x8b, 0x80, 0x3e,
  0xce, 0x92, 0xff, 0x3e, 0xa9, 0x1b, 0x67, 0xbe, 0xf3, 0xac, 0xc0, 0x3e,
  0x74, 0x69, 0xa3, 0xbf, 0xa0, 0xcf, 0x86, 0xbe, 0xcc, 0x66, 0xae, 0x3d,
  0xe2, 0x87, 0x23, 0xbe, 0xf8, 0x22, 0x3e, 0xbd, 0x34, 0xd5, 0xb9, 0x3d,
  0x12, 0xa4, 0x12, 0x3e, 0x2c, 0xf6, 0xb9, 0x3d, 0x14, 0x34, 0x0b, 0xbe,
  0x63, 0x2b, 0x85, 0xbe, 0xce, 0x01, 0x0d, 0x3e, 0x07, 0xf7, 0xbc, 0x3e,
  0x14, 0x6b, 0x8a, 0xbe, 0x16, 0x26, 0xb2, 0xbe, 0x17, 0xf8, 0xa8, 0x3e,
  0x7a, 0x8c, 0x0e, 0x3e, 0x35, 0xf5, 0xb0, 0xbe, 0xd4, 0x94, 0xc1, 0xbe,
  0x0d, 0x4d, 0x9b, 0x3e, 0xda, 0x84, 0x78, 0x3e, 0x82, 0x1c, 0x8d, 0xbd,
  0x59, 0x33, 0x7c, 0xbd, 0xa2, 0x88, 0x27, 0xbe, 0xd7, 0xa8, 0xc4, 0xbe,
  0x22, 0xe7, 0x07, 0xbe, 0x45, 0x23, 0xca, 0x3e, 0x14, 0x2f, 0x8a, 0xbe,
  0xe0, 0xc8, 0x69, 0xbe, 0x78, 0x9f, 0x79, 0x3d, 0x3e, 0x42, 0x13, 0x3f,
  0x68, 0xa8, 0x8f, 0xbe, 0x55, 0xbc, 0xa3, 0xbe, 0x4d, 0x6a, 0x57, 0xbf,
  0x26, 0xdb, 0xac, 0xbe, 0x1a, 0x6b, 0x25, 0xbe, 0xab, 0x48, 0x8a, 0x3e,
  0x48, 0xd9, 0x37, 0xbe, 0xa2, 0xb5, 0x25, 0xbf, 0xd5, 0xb4, 0x93, 0x3e,
  0xcc, 0x08, 0x5b, 0xbe, 0x2a, 0xde, 0x61, 0x3e, 0xa8, 0xfc, 0x82, 0x3d,
  0xdb, 0x2f, 0xb7, 0xbe, 0xd6, 0x04, 0x92, 0xbe, 0xa0, 0x84, 0x17, 0xbd,
  0xb6, 0x07, 0x1e, 0x3e, 0x4c, 0x0d, 0xa0, 0xbe, 0xb0, 0x78, 0xb2, 0xbd,
  0x02, 0x20, 0x9d, 0xbd, 0xf8, 0xeb, 0x04, 0x3d, 0xde, 0xf4, 0x96, 0xbe,
  0xb4, 0x1a, 0xd3, 0x3d, 0x40, 0x44, 0x70, 0xbd, 0x52, 0xdd, 0x96, 0xbe,
  0x92, 0x8d, 0x6b, 0x3e, 0x26, 0x76, 0x5b, 0x3e, 0xc8, 0x42, 0xcf, 0xbd,
  0x5e, 0x98, 0xd2, 0xbe, 0xa0, 0xd1, 0x00, 0xbe, 0xe0, 0x15, 0x39, 0xbe,
  0xf2, 0x4c, 0x61, 0x3e, 0xe0, 0x95, 0xca, 0xbe, 0x64, 0x2b, 0x98, 0xbe,
  0xf0, 0x0e, 0xdb, 0xbd, 0xd3, 0xa3, 0xba, 0x3e, 0x2a, 0x3a, 0x85, 0xbe,
  0xfd, 0x4e, 0xb6, 0xbe, 0xfa, 0x47, 0x3b, 0xbe, 0x63, 0x17, 0x74, 0xbe,
  0x01, 0x87, 0x95, 0xbe, 0x59, 0x85, 0xc9, 0xbe, 0xc2, 0x4c, 0x87, 0xbe,
  0xf3, 0xa8, 0xb1, 0x3e, 0xf7, 0xce, 0x2b, 0x3d, 0x12, 0xe2, 0x0b, 0xbe,
  0xd0, 0x75, 0xa4, 0x3c, 0x00, 0xdf, 0x2a, 0xbe, 0x7c, 0xaa, 0xa9, 0x3d,
  0x1d, 0xed, 0xbd, 0xbe, 0xa6, 0xdc, 0xa9, 0xbe, 0x0c, 0x68, 0xdf, 0x3d,
  0xb4, 0x02, 0xcf, 0xbe, 0x2f, 0xce, 0xda, 0x3e, 0x45, 0xa9, 0xbb, 0xbe,
  0x1b, 0x01, 0xd5, 0xbd, 0x93, 0xed, 0xb3, 0x3c, 0xf0, 0xab, 0x1d, 0x3d,
  0x66, 0x10, 0x2b, 0x3e, 0xd7, 0xf8, 0xb9, 0xbe, 0x45, 0x7e, 0xab, 0xbe,
  0xd5, 0x74, 0x4a, 0xbe, 0xf5, 0x19, 0xb6, 0xbe, 0x00, 0xcf, 0x15, 0x3b,
  0x3f, 0x0d, 0xb4, 0xbe, 0x7d, 0xfa, 0x9f, 0xbe, 0x92, 0xe6, 0x66, 0x3e,
  0x22, 0x49, 0xcc, 0x3e, 0xac, 0x47, 0x8e, 0x3d, 0x9e, 0xc0, 0x2c, 0x3e,
  0x9c, 0x35, 0x23, 0xbe, 0x56, 0xa4, 0x09, 0x3f, 0x15, 0x59, 0xfd, 0xbd,
  0x63, 0xd9, 0xae, 0x3e, 0xb9, 0x2d, 0xd2, 0x3e, 0xac, 0x82, 0xba, 0x3d,
  0xb9, 0xa0, 0x9e, 0xbe, 0x08, 0xe8, 0x84, 0x3d, 0x3f, 0x76, 0xac, 0xbe,
  0x2e, 0x55, 0x5f, 0x3e, 0xff, 0x9e, 0x16, 0xbf, 0x01, 0xd4, 0xd0, 0xbe,
  0x5c, 0x9a, 0xe1, 0xbd, 0x57, 0xf4, 0x13, 0x3f, 0x1a, 0x7b, 0x0a, 0xbe,
  0xb8, 0xea, 0x6e, 0xbe, 0x24, 0xaf, 0xe7, 0x3d, 0x54, 0x69, 0x8e, 0x3e,
  0x65, 0x8b, 0x4d, 0x3e, 0x0f, 0x56, 0xa0, 0x3e, 0xfa, 0x81, 0xb4, 0xbd,
  0x5c, 0x61, 0xef, 0xbd, 0x4a, 0x78, 0xea, 0x3d, 0x30, 0x72, 0x9f, 0xbe,
  0x70, 0x4a, 0xda, 0xbc, 0x94, 0x27, 0xb9, 0xbd, 0x2c, 0x59, 0x09, 0x3f,
  0x8e, 0x50, 0x3e, 0x3e, 0x40, 0xea, 0x20, 0x3c, 0xd0, 0x17, 0x7e, 0xbf,
  0x2b, 0x04, 0xb3, 0xbe, 0xe8, 0xaa, 0x37, 0xbd, 0x91, 0xe8, 0x69, 0xbe,
  0x20, 0xcb, 0xde, 0xbc, 0xcf, 0xc3, 0xc1, 0xbe, 0xa0, 0xb6, 0x34, 0x3c,
  0x4a, 0xd9, 0x02, 0x3e, 0xf8, 0x94, 0x1d, 0x3d, 0x80, 0xe6, 0x03, 0x3b,
  0x80, 0x81, 0xd4, 0xbd, 0x64, 0x58, 0xc2, 0x3d, 0x1f, 0xdc, 0x92, 0x3e,
  0xfd, 0xfe, 0x47, 0xbe, 0x2c, 0x0d, 0x31, 0xbe, 0xe8, 0x20, 0x2a, 0xbe,
  0xdb, 0xeb, 0x82, 0x3e, 0x50, 0xf2, 0xef, 0xbc, 0x32, 0xa6, 0x6b, 0x3e,
  0x87, 0x40, 0x4c, 0xbe, 0x9f, 0x8a, 0xb3, 0xbe, 0x16, 0x94, 0x87, 0xbe,
  0xe0, 0x3a, 0xb8, 0xbd, 0x8e, 0x65, 0x86, 0xbe, 0x00, 0xdc, 0x26, 0xbb,
  0xac, 0x91, 0x2c, 0x3e, 0x5e, 0xcf, 0x74, 0x3e, 0xf7, 0x5d, 0xd7, 0xbe,
  0x3c, 0xed, 0x91, 0xbe, 0x24, 0x16, 0x8a, 0x3e, 0x42, 0xb3, 0x1d, 0x3e,
  0x9b, 0x9c, 0x7c, 0xbe, 0xdc, 0x07, 0xf8, 0x3d, 0x03, 0x65, 0xc5, 0x3e,
  0x8a, 0xd4, 0x79, 0x3e, 0x1d, 0x2c, 0xc5, 0xbe, 0x04, 0x4d, 0x88, 0xbe,
  0x2f, 0xa3, 0x8d, 0xbe, 0x2d, 0x2a, 0xd4, 0x3e, 0xa7, 0x13, 0x97, 0xbe,
  0x40, 0xbc, 0x78, 0x3c, 0x6e, 0x8f, 0x9a, 0xbe, 0x7f, 0xe2, 0x74, 0xbe,
  0xda, 0xdf, 0x2e, 0x3e, 0xba, 0x39, 0x02, 0xbe, 0x00, 0x98, 0x32, 0xbe,
  0x2e, 0x71, 0x36, 0xbe, 0x18, 0xf1, 0x50, 0x3d, 0x53, 0x65, 0xcf, 0x3e,
  0x70, 0xe1, 0x41, 0xbd, 0xac, 0x1c, 0x18, 0xbe, 0x40, 0x38, 0x1f, 0x3d,
  0xb9, 0xd3, 0x82, 0xbe, 0x42, 0x40, 0xb7, 0x3d, 0x59, 0xf1, 0x9e, 0x3e,
  0x99, 0x79, 0xb1, 0x3e, 0xe1, 0xeb, 0xbc, 0x3e, 0xec, 0x16, 0x45, 0x3e,
  0x60, 0x32, 0x6c, 0xbc, 0xfb, 0x29, 0xd0, 0x3e, 0x09, 0xe1, 0xc1, 0x3e,
  0x93, 0x45, 0x58, 0x3e, 0x68, 0x76, 0x2f, 0xbe, 0x9a, 0xec, 0x56, 0x3e,
  0xa2, 0xa0, 0x66, 0xbf, 0x90, 0xa4, 0xae, 0xbd, 0x94, 0xc9, 0xb1, 0x3d,
  0xcd, 0x32, 0x82, 0xbe, 0x67, 0xf0, 0x82, 0xbe, 0xb6, 0x83, 0xe9, 0xbe,
  0xef, 0xd3, 0x57, 0xbe, 0xbb, 0xa7, 0xe3, 0xbe, 0x98, 0x21, 0x63, 0xbe,
  0xcd, 0x92, 0x94, 0x3e, 0xde, 0xd4, 0x14, 0xbe, 0x2a, 0x7f, 0x72, 0x3e,
  0x14, 0x37, 0x81, 0x3d, 0x82, 0x08, 0xdf, 0x3e, 0x64, 0x52, 0xd6, 0x3d,
  0x94, 0xd7, 0xf7, 0x3d, 0x57, 0xbc, 0x59, 0x3e, 0xa2, 0x67, 0x26, 0x3e,
  0xd4, 0xd1, 0xcc, 0xbd, 0x00, 0x0e, 0x0f, 0x3c, 0xbe, 0x10, 0x20, 0x3e,
  0xf4, 0xd2, 0xaa, 0xbe, 0x60, 0x62, 0x68, 0x3c, 0xb7, 0xcb, 0xad, 0xbe,
  0xf2, 0xeb, 0x95, 0xbe, 0x62, 0xf6, 0x13, 0xbe, 0x6e, 0xbc, 0xd5, 0xbe,
  0xa6, 0x0a, 0xd4, 0xbe, 0x00, 0x58, 0x21, 0x3b, 0x54, 0xa6, 0xb3, 0x3d,
  0x3c, 0x03, 0xd7, 0xbe, 0x40, 0xb4, 0x23, 0xbc, 0x6e, 0xfc, 0x62, 0x3e,
  0x4e, 0xe7, 0x03, 0xbe, 0x54, 0xb9, 0xb5, 0xbe, 0x46, 0x5d, 0x07, 0x3e,
  0x97, 0xc4, 0x8f, 0xbe, 0x05, 0xfa, 0xa0, 0x3e, 0x34, 0xfa, 0xe0, 0xbd,
  0x46, 0x67, 0xc5, 0xbe, 0xb9, 0x76, 0x5e, 0xbe, 0x38, 0xa0, 0x26, 0xbe,
  0x88, 0xb8, 0xbf, 0xbd, 0xfe, 0xff, 0x26, 0x3e, 0xf7, 0xf7, 0xa8, 0xbe,
  0x83, 0xfe, 0x6d, 0xbe, 0x4a, 0xae, 0x0c, 0x3e, 0x30, 0x73, 0xca, 0xbd,
  0x58, 0x93, 0xd9, 0xbe, 0x80, 0x7f, 0x7a, 0xbc, 0x56, 0xff, 0xff, 0xff,
  0x04, 0x00, 0x00, 0x00, 0x40, 0x00, 0x00, 0x00, 0x96, 0x40, 0xbe, 0xbe,
  0xb0, 0x0d, 0xd1, 0xbe, 0x23, 0x10, 0x0e, 0x3f, 0x35, 0x49, 0x10, 0x3f,
  0x54, 0xd3, 0x99, 0xbe, 0xdd, 0xcf, 0x10, 0x3f, 0xfc, 0x7b, 0x0d, 0xbf,
  0x47, 0x44, 0xb5, 0x3d, 0xe4, 0x3d, 0x6f, 0xbe, 0x1b, 0x88, 0xf6, 0xbe,
  0xd6, 0x2b, 0x83, 0xbe, 0x8b, 0x13, 0xb6, 0x3d, 0x26, 0x90, 0xc1, 0xbe,
  0xf6, 0xda, 0xcc, 0xbe, 0xdc, 0x63, 0xba, 0x3e, 0x42, 0xd0, 0xf4, 0xbe,
  0xa2, 0xff, 0xff, 0xff, 0x04, 0x00, 0x00, 0x00, 0x40, 0x00, 0x00, 0x00,
  0x00, 0x00, 0x00, 0x00, 0x00, 0x00, 0x00, 0x00, 0x47, 0x5d, 0x0b, 0xbf,
  0x26, 0xed, 0xab, 0x3d, 0x00, 0x00, 0x00, 0x00, 0xf0, 0xf7, 0xca, 0x3c,
  0x00, 0x00, 0x00, 0x00, 0xde, 0x0d, 0x17, 0x3f, 0x00, 0x00, 0x00, 0x00,
  0x00, 0x00, 0x00, 0x00, 0x00, 0x00, 0x00, 0x00, 0xf9, 0x49, 0x96, 0x3f,
  0x00, 0x00, 0x00, 0x00, 0x00, 0x00, 0x00, 0x00, 0x85, 0x1a, 0x80, 0xbf,
  0x00, 0x00, 0x00, 0x00, 0xee, 0xff, 0xff, 0xff, 0x04, 0x00, 0x00, 0x00,
  0x04, 0x00, 0x00, 0x00, 0xc7, 0x75, 0xa2, 0xbe, 0x00, 0x00, 0x06, 0x00,
  0x08, 0x00, 0x04, 0x00, 0x06, 0x00, 0x00, 0x00, 0x04, 0x00, 0x00, 0x00,
  0x40, 0x00, 0x00, 0x00, 0xcf, 0x38, 0xfb, 0x3e, 0x00, 0x00, 0x00, 0x00,
  0xca, 0xfa, 0xfd, 0x3e, 0xff, 0x50, 0x88, 0x3e, 0x00, 0x00, 0x00, 0x00,
  0x1b, 0x95, 0xb5, 0xbd, 0x77, 0x3b, 0x4f, 0xbb, 0x4f, 0x1b, 0xf9, 0xbe,
  0xa9, 0x84, 0x7c, 0x3e, 0x00, 0x00, 0x00, 0x00, 0x85, 0xc8, 0x5f, 0x3e,
  0x00, 0x00, 0x00, 0x00, 0x87, 0x56, 0x58, 0x3e, 0xf2, 0xe7, 0x82, 0x3e,
  0x00, 0x00, 0x00, 0x00, 0x00, 0x00, 0x00, 0x00, 0x20, 0xfb, 0xff, 0xff,
  0x24, 0xfb, 0xff, 0xff, 0x0f, 0x00, 0x00, 0x00, 0x4d, 0x4c, 0x49, 0x52,
  0x20, 0x43, 0x6f, 0x6e, 0x76, 0x65, 0x72, 0x74, 0x65, 0x64, 0x2e, 0x00,
  0x01, 0x00, 0x00, 0x00, 0x14, 0x00, 0x00, 0x00, 0x00, 0x00, 0x0e, 0x00,
  0x18, 0x00, 0x14, 0x00, 0x10, 0x00, 0x0c, 0x00, 0x08, 0x00, 0x04, 0x00,
  0x0e, 0x00, 0x00, 0x00, 0x14, 0x00, 0x00, 0x00, 0x1c, 0x00, 0x00, 0x00,
  0xd8, 0x00, 0x00, 0x00, 0xdc, 0x00, 0x00, 0x00, 0xe0, 0x00, 0x00, 0x00,
  0x04, 0x00, 0x00, 0x00, 0x6d, 0x61, 0x69, 0x6e, 0x00, 0x00, 0x00, 0x00,
  0x03, 0x00, 0x00, 0x00, 0x80, 0x00, 0x00, 0x00, 0x38, 0x00, 0x00, 0x00,
  0x04, 0x00, 0x00, 0x00, 0x9a, 0xff, 0xff, 0xff, 0x10, 0x00, 0x00, 0x00,
  0x00, 0x00, 0x00, 0x08, 0x0c, 0x00, 0x00, 0x00, 0x10, 0x00, 0x00, 0x00,
  0x9c, 0xfb, 0xff, 0xff, 0x01, 0x00, 0x00, 0x00, 0x09, 0x00, 0x00, 0x00,
  0x03, 0x00, 0x00, 0x00, 0x08, 0x00, 0x00, 0x00, 0x06, 0x00, 0x00, 0x00,
  0x02, 0x00, 0x00, 0x00, 0xca, 0xff, 0xff, 0xff, 0x10, 0x00, 0x00, 0x00,
  0x00, 0x00, 0x00, 0x08, 0x10, 0x00, 0x00, 0x00, 0x14, 0x00, 0x00, 0x00,
  0xba, 0xff, 0xff, 0xff, 0x00, 0x00, 0x00, 0x01, 0x01, 0x00, 0x00, 0x00,
  0x08, 0x00, 0x00, 0x00, 0x03, 0x00, 0x00, 0x00, 0x07, 0x00, 0x00, 0x00,
  0x05, 0x00, 0x00, 0x00, 0x01, 0x00, 0x00, 0x00, 0x00, 0x00, 0x0e, 0x00,
  0x16, 0x00, 0x00, 0x00, 0x10, 0x00, 0x0c, 0x00, 0x0b, 0x00, 0x04, 0x00,
  0x0e, 0x00, 0x00, 0x00, 0x18, 0x00, 0x00, 0x00, 0x00, 0x00, 0x00, 0x08,
  0x18, 0x00, 0x00, 0x00, 0x1c, 0x00, 0x00, 0x00, 0x00, 0x00, 0x06, 0x00,
  0x08, 0x00, 0x07, 0x00, 0x06, 0x00, 0x00, 0x00, 0x00, 0x00, 0x00, 0x01,
  0x01, 0x00, 0x00, 0x00, 0x07, 0x00, 0x00, 0x00, 0x03, 0x00, 0x00, 0x00,
  0x00, 0x00, 0x00, 0x00, 0x04, 0x00, 0x00, 0x00, 0x03, 0x00, 0x00, 0x00,
  0x01, 0x00, 0x00, 0x00, 0x09, 0x00, 0x00, 0x00, 0x01, 0x00, 0x00, 0x00,
  0x00, 0x00, 0x00, 0x00, 0x0a, 0x00, 0x00, 0x00, 0x8c, 0x03, 0x00, 0x00,
  0x1c, 0x03, 0x00, 0x00, 0xac, 0x02, 0x00, 0x00, 0x58, 0x02, 0x00, 0x00,
  0x10, 0x02, 0x00, 0x00, 0xc4, 0x01, 0x00, 0x00, 0x78, 0x01, 0x00, 0x00,
  0xf0, 0x00, 0x00, 0x00, 0x60, 0x00, 0x00, 0x00, 0x04, 0x00, 0x00, 0x00,
  0xb2, 0xfc, 0xff, 0xff, 0x00, 0x00, 0x00, 0x01, 0x14, 0x00, 0x00, 0x00,
  0x1c, 0x00, 0x00, 0x00, 0x1c, 0x00, 0x00, 0x00, 0x0a, 0x00, 0x00, 0x00,
  0x34, 0x00, 0x00, 0x00, 0x02, 0x00, 0x00, 0x00, 0xff, 0xff, 0xff, 0xff,
  0x01, 0x00, 0x00, 0x00, 0x9c, 0xfc, 0xff, 0xff, 0x19, 0x00, 0x00, 0x00,
  0x53, 0x74, 0x61, 0x74, 0x65, 0x66, 0x75, 0x6c, 0x50, 0x61, 0x72, 0x74,
  0x69, 0x74, 0x69, 0x6f, 0x6e, 0x65, 0x64, 0x43, 0x61, 0x6c, 0x6c, 0x3a,
  0x30, 0x00, 0x00, 0x00, 0x02, 0x00, 0x00, 0x00, 0x01, 0x00, 0x00, 0x00,
  0x01, 0x00, 0x00, 0x00, 0x0a, 0xfd, 0xff, 0xff, 0x00, 0x00, 0x00, 0x01,
  0x14, 0x00, 0x00, 0x00, 0x1c, 0x00, 0x00, 0x00, 0x1c, 0x00, 0x00, 0x00,
  0x09, 0x00, 0x00, 0x00, 0x68, 0x00, 0x00, 0x00, 0x02, 0x00, 0x00, 0x00,
  0xff, 0xff, 0xff, 0xff, 0x10, 0x00, 0x00, 0x00, 0xf4, 0xfc, 0xff, 0xff,
  0x4c, 0x00, 0x00, 0x00, 0x73, 0x65, 0x71, 0x75, 0x65, 0x6e, 0x74, 0x69,
  0x61, 0x6c, 0x2f, 0x64, 0x65, 0x6e, 0x73, 0x65, 0x5f, 0x31, 0x2f, 0x4d,
  0x61, 0x74, 0x4d, 0x75, 0x6c, 0x3b, 0x73, 0x65, 0x71, 0x75, 0x65, 0x6e,
  0x74, 0x69, 0x61, 0x6c, 0x2f, 0x64, 0x65, 0x6e, 0x73, 0x65, 0x5f, 0x31,
  0x2f, 0x52, 0x65, 0x6c, 0x75, 0x3b, 0x73, 0x65, 0x71, 0x75, 0x65, 0x6e,
  0x74, 0x69, 0x61, 0x6c, 0x2f, 0x64, 0x65, 0x6e, 0x73, 0x65, 0x5f, 0x31,
  0x2f, 0x42, 0x69, 0x61, 0x73, 0x41, 0x64, 0x64, 0x00, 0x00, 0x00, 0x00,
  0x02, 0x00, 0x00, 0x00, 0x01, 0x00, 0x00, 0x00, 0x10, 0x00, 0x00, 0x00,
  0x96, 0xfd, 0xff, 0xff, 0x00, 0x00, 0x00, 0x01, 0x14, 0x00, 0x00, 0x00,
  0x1c, 0x00, 0x00, 0x00, 0x1c, 0x00, 0x00, 0x00, 0x08, 0x00, 0x00, 0x00,
  0x60, 0x00, 0x00, 0x00, 0x02, 0x00, 0x00, 0x00, 0xff, 0xff, 0xff, 0xff,
  0x10, 0x00, 0x00, 0x00, 0x80, 0xfd, 0xff, 0xff, 0x46, 0x00, 0x00, 0x00,
  0x73, 0x65, 0x71, 0x75, 0x65, 0x6e, 0x74, 0x69, 0x61, 0x6c, 0x2f, 0x64,
  0x65, 0x6e, 0x73, 0x65, 0x2f, 0x4d, 0x61, 0x74, 0x4d, 0x75, 0x6c, 0x3b,
  0x73, 0x65, 0x71, 0x75, 0x65, 0x6e, 0x74, 0x69, 0x61, 0x6c, 0x2f, 0x64,
  0x65, 0x6e, 0x73, 0x65, 0x2f, 0x52, 0x65, 0x6c, 0x75, 0x3b, 0x73, 0x65,
  0x71, 0x75, 0x65, 0x6e, 0x74, 0x69, 0x61, 0x6c, 0x2f, 0x64, 0x65, 0x6e,
  0x73, 0x65, 0x2f, 0x42, 0x69, 0x61, 0x73, 0x41, 0x64, 0x64, 0x00, 0x00,
  0x02, 0x00, 0x00, 0x00, 0x01, 0x00, 0x00, 0x00, 0x10, 0x00, 0x00, 0x00,
  0x86, 0xfe, 0xff, 0xff, 0x00, 0x00, 0x00, 0x01, 0x10, 0x00, 0x00, 0x00,
  0x10, 0x00, 0x00, 0x00, 0x07, 0x00, 0x00, 0x00, 0x28, 0x00, 0x00, 0x00,
  0xf4, 0xfd, 0xff, 0xff, 0x19, 0x00, 0x00, 0x00, 0x73, 0x65, 0x71, 0x75,
  0x65, 0x6e, 0x74, 0x69, 0x61, 0x6c, 0x2f, 0x64, 0x65, 0x6e, 0x73, 0x65,
  0x5f, 0x32, 0x2f, 0x4d, 0x61, 0x74, 0x4d, 0x75, 0x6c, 0x00, 0x00, 0x00,
  0x02, 0x00, 0x00, 0x00, 0x01, 0x00, 0x00, 0x00, 0x10, 0x00, 0x00, 0x00,
  0xce, 0xfe, 0xff, 0xff, 0x00, 0x00, 0x00, 0x01, 0x10, 0x00, 0x00, 0x00,
  0x10, 0x00, 0x00, 0x00, 0x06, 0x00, 0x00, 0x00, 0x28, 0x00, 0x00, 0x00,
  0x3c, 0xfe, 0xff, 0xff, 0x19, 0x00, 0x00, 0x00, 0x73, 0x65, 0x71, 0x75,
  0x65, 0x6e, 0x74, 0x69, 0x61, 0x6c, 0x2f, 0x64, 0x65, 0x6e, 0x73, 0x65,
  0x5f, 0x31, 0x2f, 0x4d, 0x61, 0x74, 0x4d, 0x75, 0x6c, 0x00, 0x00, 0x00,
  0x02, 0x00, 0x00, 0x00, 0x10, 0x00, 0x00, 0x00, 0x10, 0x00, 0x00, 0x00,
  0x16, 0xff, 0xff, 0xff, 0x00, 0x00, 0x00, 0x01, 0x10, 0x00, 0x00, 0x00,
  0x10, 0x00, 0x00, 0x00, 0x05, 0x00, 0x00, 0x00, 0x24, 0x00, 0x00, 0x00,
  0x84, 0xfe, 0xff, 0xff, 0x17, 0x00, 0x00, 0x00, 0x73, 0x65, 0x71, 0x75,
  0x65, 0x6e, 0x74, 0x69, 0x61, 0x6c, 0x2f, 0x64, 0x65, 0x6e, 0x73, 0x65,
  0x2f, 0x4d, 0x61, 0x74, 0x4d, 0x75, 0x6c, 0x00, 0x02, 0x00, 0x00, 0x00,
  0x10, 0x00, 0x00, 0x00, 0x01, 0x00, 0x00, 0x00, 0x5a, 0xff, 0xff, 0xff,
  0x00, 0x00, 0x00, 0x01, 0x10, 0x00, 0x00, 0x00, 0x10, 0x00, 0x00, 0x00,
  0x04, 0x00, 0x00, 0x00, 0x34, 0x00, 0x00, 0x00, 0xc8, 0xfe, 0xff, 0xff,
  0x27, 0x00, 0x00, 0x00, 0x73, 0x65, 0x71, 0x75, 0x65, 0x6e, 0x74, 0x69,
  0x61, 0x6c, 0x2f, 0x64, 0x65, 0x6e, 0x73, 0x65, 0x2f, 0x42, 0x69, 0x61,
  0x73, 0x41, 0x64, 0x64, 0x2f, 0x52, 0x65, 0x61, 0x64, 0x56, 0x61, 0x72,
  0x69, 0x61, 0x62, 0x6c, 0x65, 0x4f, 0x70, 0x00, 0x01, 0x00, 0x00, 0x00,
  0x10, 0x00, 0x00, 0x00, 0xaa, 0xff, 0xff, 0xff, 0x00, 0x00, 0x00, 0x01,
  0x10, 0x00, 0x00, 0x00, 0x10, 0x00, 0x00, 0x00, 0x03, 0x00, 0x00, 0x00,
  0x38, 0x00, 0x00, 0x00, 0x18, 0xff, 0xff, 0xff, 0x29, 0x00, 0x00, 0x00,
  0x73, 0x65, 0x71, 0x75, 0x65, 0x6e, 0x74, 0x69, 0x61, 0x6c, 0x2f, 0x64,
  0x65, 0x6e, 0x73, 0x65, 0x5f, 0x32, 0x2f, 0x42, 0x69, 0x61, 0x73, 0x41,
  0x64, 0x64, 0x2f, 0x52, 0x65, 0x61, 0x64, 0x56, 0x61, 0x72, 0x69, 0x61,
  0x62, 0x6c, 0x65, 0x4f, 0x70, 0x00, 0x00, 0x00, 0x01, 0x00, 0x00, 0x00,
  0x01, 0x00, 0x00, 0x00, 0x00, 0x00, 0x16, 0x00, 0x18, 0x00, 0x14, 0x00,
  0x00, 0x00, 0x10, 0x00, 0x0c, 0x00, 0x08, 0x00, 0x00, 0x00, 0x00, 0x00,
  0x00, 0x00, 0x07, 0x00, 0x16, 0x00, 0x00, 0x00, 0x00, 0x00, 0x00, 0x01,
  0x10, 0x00, 0x00, 0x00, 0x10, 0x00, 0x00, 0x00, 0x02, 0x00, 0x00, 0x00,
  0x38, 0x00, 0x00, 0x00, 0x84, 0xff, 0xff, 0xff, 0x29, 0x00, 0x00, 0x00,
  0x73, 0x65, 0x71, 0x75, 0x65, 0x6e, 0x74, 0x69, 0x61, 0x6c, 0x2f, 0x64,
  0x65, 0x6e, 0x73, 0x65, 0x5f, 0x31, 0x2f, 0x42, 0x69, 0x61, 0x73, 0x41,
  0x64, 0x64, 0x2f, 0x52, 0x65, 0x61, 0x64, 0x56, 0x61, 0x72, 0x69, 0x61,
  0x62, 0x6c, 0x65, 0x4f, 0x70, 0x00, 0x00, 0x00, 0x01, 0x00, 0x00, 0x00,
  0x10, 0x00, 0x00, 0x00, 0x00, 0x00, 0x16, 0x00, 0x1c, 0x00, 0x18, 0x00,
  0x00, 0x00, 0x14, 0x00, 0x10, 0x00, 0x0c, 0x00, 0x00, 0x00, 0x00, 0x00,
  0x08, 0x00, 0x07, 0x00, 0x16, 0x00, 0x00, 0x00, 0x00, 0x00, 0x00, 0x01,
  0x14, 0x00, 0x00, 0x00, 0x20, 0x00, 0x00, 0x00, 0x20, 0x00, 0x00, 0x00,
  0x01, 0x00, 0x00, 0x00, 0x3c, 0x00, 0x00, 0x00, 0x02, 0x00, 0x00, 0x00,
  0xff, 0xff, 0xff, 0xff, 0x01, 0x00, 0x00, 0x00, 0x04, 0x00, 0x04, 0x00,
  0x04, 0x00, 0x00, 0x00, 0x1d, 0x00, 0x00, 0x00, 0x73, 0x65, 0x72, 0x76,
  0x69, 0x6e, 0x67, 0x5f, 0x64, 0x65, 0x66, 0x61, 0x75, 0x6c, 0x74, 0x5f,
  0x64, 0x65, 0x6e, 0x73, 0x65, 0x5f, 0x69, 0x6e, 0x70, 0x75, 0x74, 0x3a,
  0x30, 0x00, 0x00, 0x00, 0x02, 0x00, 0x00, 0x00, 0x01, 0x00, 0x00, 0x00,
  0x01, 0x00, 0x00, 0x00, 0x01, 0x00, 0x00, 0x00, 0x10, 0x00, 0x00, 0x00,
  0x0c, 0x00, 0x0c, 0x00, 0x0b, 0x00, 0x00, 0x00, 0x00, 0x00, 0x04, 0x00,
  0x0c, 0x00, 0x00, 0x00, 0x09, 0x00, 0x00, 0x00, 0x00, 0x00, 0x00, 0x09
 
};

#endif //SINE_MODEL_H